001b
0017
fffd
0011
0002
ffe9
fffd
fff0
ffea
0023
001c
fffb
0016
0002
ffe3
fffd
ffeb
ffe1
001e
001a
fffc
0013
0003
ffe7
fffd
ffee
ffe6
0007
000a
0008
0009
000c
000a
0008
000a
0008
0001
0003
0002
0001
0004
0002
0002
0003
0002
fff5
fff6
fff7
fff4
fff5
fff5
fff6
fff6
fff6
0002
0000
fff9
000a
000a
fffb
0000
0000
fff8
0006
0003
fffa
000f
000e
fffc
0004
0003
fff9
0002
0000
fff8
000a
0009
fff9
0001
0000
fff7
0016
0011
0013
0006
ffe9
fffe
0000
ffe7
fff7
001b
0014
0016
0006
ffe5
fffb
fffd
ffe0
fff1
001a
0014
0016
0006
ffe7
fffd
ffff
ffe3
fff4
fffb
000c
000a
fff5
000b
0009
fff1
fff7
fffa
fff9
000f
000f
fff2
000d
000d
ffeb
fff5
fff9
fffb
0010
000e
fff5
000f
000e
ffef
fff9
fffc
000e
000f
000e
0010
0011
000f
000e
0010
000e
fff4
fff2
fff5
fff3
fff1
fff2
fff4
fff4
fff4
fffd
fffb
fffe
fffc
fffa
fffb
fffe
fffd
fffe
0004
fff9
fff6
0009
fffd
fff7
0009
0006
0000
0006
fff8
fff3
000c
fffe
fff5
000e
0009
0001
0004
fff7
fff3
0009
fffc
fff4
000b
0006
0000
0002
0007
0006
fff3
fff7
0002
fff3
fff5
0000
0005
000d
000f
fff2
fffa
0008
ffee
fff4
0002
0007
0010
0010
fff6
fffe
000b
fff2
fff8
0005
0008
0006
0008
0007
0004
0006
0006
0007
0006
ffef
ffec
ffef
ffee
ffeb
ffed
ffee
ffef
ffee
000a
000a
000a
000c
000d
000c
000a
000e
000a
0002
fffd
0001
0009
0006
0009
000e
000f
000e
fff7
fff0
fff6
ffff
fffb
ffff
0006
0006
0006
fff6
ffef
fff5
fffd
fff7
fffc
0004
0003
0004
0006
0020
0002
0000
001f
fffe
ffe8
ffec
ffe8
000b
0026
0007
0000
0021
fffe
ffe1
ffe6
ffe0
0009
0024
0006
0000
0020
fffe
ffe3
ffe9
ffe3
fffb
0006
0002
fff6
0005
0002
fff2
fff7
fff9
0002
0012
000f
fffd
0010
000e
fff6
fffe
0000
fffb
0008
0005
fff4
0005
0003
ffef
fff5
fff9
fff7
fff7
fff7
fff7
fffa
fff9
fff6
fff6
fff6
0012
0016
0013
0016
001c
0018
0013
0016
0014
fff2
fff4
fff3
fff4
fff7
fff5
fff3
fff4
fff3
0003
0000
fff9
000d
000b
ffff
000c
000c
0002
0001
fffb
fff5
000b
0007
fffb
000c
000b
0000
fff8
fff2
ffed
0000
fffd
fff2
0002
0000
fff8
fffb
ffe8
fffd
fffe
ffe7
0000
000e
000a
0010
fff8
ffe3
fffb
fffd
ffe5
0001
0013
000e
0016
fffa
ffe6
fffd
ffff
ffe7
0002
0013
000e
0015
000a
0008
0008
0006
0001
0005
0007
0006
0008
fff7
fff4
fff4
fff1
ffeb
fff0
fff4
fff1
fff4
000a
0009
0008
0006
0002
0005
0006
0005
0006
0001
fffe
0002
fffe
fff9
fffe
fffe
fffb
fffe
fffd
fffa
fffd
fffa
fff7
fffb
fffa
fff9
fffa
000c
000b
000b
000e
000e
000e
000d
000f
000d
0003
0005
fffb
0004
0006
fff7
fffb
fffa
fff5
000b
000c
ffff
000c
000d
fffb
0000
fffe
fff6
0005
0007
fffb
0006
0007
fff6
fffc
fffa
fff3
000c
000a
000c
000c
0007
000d
000c
0009
000c
fff3
fff0
fff4
fff3
ffeb
fff3
fff4
ffef
fff4
0004
0002
0005
0005
ffff
0006
0005
0002
0005
fffe
fffa
fffd
fffb
fff7
fffb
fffc
fffa
fffc
fff8
fff4
fff7
fff7
fff3
fff7
fff9
fff7
fff8
0008
0008
0007
000c
000c
000b
000b
000d
000a
0017
0013
0008
0011
0005
fffc
0008
ffff
fff7
0010
000a
ffff
0007
fff9
ffee
ffff
fff1
ffe9
000f
0009
0000
0006
fff8
ffef
ffff
fff2
ffeb
000f
0013
0004
0005
fffc
fff0
0000
fff3
fff0
0016
0018
0003
0009
fffb
ffeb
0000
ffee
ffe7
0016
0019
0005
000b
ffff
ffef
0002
fff3
ffeb
000a
000a
000a
000b
000b
000a
000a
000c
000a
0000
ffff
0000
ffff
fffd
ffff
0000
0000
0000
fff9
fff6
fff9
fff6
fff2
fff5
fff8
fff6
fff8
fff5
fff9
000b
fffb
0000
0015
000b
0011
0019
ffe1
ffe6
fffe
ffe8
ffef
0008
fffd
0004
000f
ffed
fff1
0006
fff3
fff9
0011
0006
000d
0017
0002
0000
fffe
0004
0001
fffd
0002
0000
fffe
0007
0004
0000
0009
0005
ffff
0007
0004
0000
ffff
fffc
fff9
0000
fffc
fff7
ffff
fffc
fff9
0006
0007
0006
0007
0009
0008
0005
0007
0005
0007
0008
0008
0008
000a
0009
0006
0008
0007
fff6
fff6
fff7
fff6
fff5
fff6
fff5
fff5
fff6
fffe
ffe7
ffee
000b
fffa
fffb
0011
000f
000b
fffc
ffe1
ffe6
000f
fffa
fff8
001a
0016
000e
fffc
ffe2
ffe8
000e
fffa
fff9
0017
0014
000e
fff4
fff5
fff5
fff5
fff8
fff6
fff4
fff5
fff4
0006
000b
0008
0009
0010
000c
0005
0009
0007
fffd
0001
0000
0000
0007
0003
fffc
0000
ffff
fffe
fffe
0011
ffea
ffe5
000d
fffc
fffb
000f
fffc
ffff
0018
ffe5
ffe3
0012
fffa
fffc
0015
fffe
0000
0017
ffe9
ffe5
0011
fffc
fffd
0014
fff4
fff5
fff6
fff4
fff5
fff6
fff6
fff5
fff9
0000
0001
ffff
0000
0000
fffd
fffc
fffb
fffb
000e
0011
0009
000e
0011
0009
0006
0006
0002
fff2
fff6
fffa
fffa
000a
0008
fffe
000b
0007
fff0
fff6
fffc
fffa
000e
000c
0000
0010
000d
ffee
fff3
fff9
fff7
0008
0007
fffd
000b
0008
0008
0005
0007
0007
0000
0007
000a
0006
0009
0007
0006
0007
0007
0000
0007
0009
0005
0008
0009
0008
0008
0009
0002
0008
0009
0007
0008
fff9
fff9
fffa
fffb
fffc
fffa
fffa
fffa
fffa
fffc
fffb
fffc
fffd
0000
fffd
fffc
fffd
fffc
0000
0002
0001
0003
0007
0003
0000
0002
0000
0000
ffff
fff9
000c
0012
ffff
0007
000d
0000
fff7
fff4
ffed
0002
0007
fff3
ffff
0003
fff5
0000
fffe
fff7
000b
0010
fffe
0007
000c
ffff
fff1
fff0
ffeb
0006
0017
fffb
0005
0017
0000
ffee
ffec
ffe5
0008
0019
fffa
000a
001c
0001
ffef
ffed
ffe7
0007
0018
fffa
0009
001a
0001
ffed
fff6
0002
fff1
0009
0016
fffa
0006
000b
ffe5
fff3
0004
ffec
000a
001c
fff7
0009
0013
ffe7
fff4
0004
ffed
0009
001a
fff8
0008
0011
0003
0004
0003
0004
0005
0004
0003
0004
0004
0003
0002
0003
0002
0002
0002
0003
0002
0003
fff6
fff3
fff5
fff4
fff2
fff4
fff5
fff4
fff6
ffeb
ffef
ffee
fffa
0015
0000
0002
001d
0008
ffe5
ffea
ffe9
fff9
0017
0001
0004
0022
000c
ffe9
ffee
ffed
fffb
0018
0003
0004
0021
000c
000a
000d
0003
0001
0000
fffb
fffb
fff8
fff8
0012
0015
0009
0006
0004
ffff
fffe
fffa
fff9
0008
0009
0000
fffc
fffa
fff5
fff6
fff1
fff1
0006
0002
0005
0007
0001
0006
0006
0003
0005
fff9
fff4
fff8
fff9
fff1
fff8
fffa
fff5
fff8
fffe
fff9
fffe
fffe
fff5
fffd
fffe
fff9
fffd
fff9
fff9
fff7
ffff
0001
fffa
fffe
ffff
fffa
0004
0004
0000
000c
000f
0005
000b
000c
0005
fffa
fff9
fff6
0000
0002
fffa
0000
0000
fffa
0015
0016
0019
0000
fff6
000d
fff9
ffee
0005
000b
000d
0012
fff2
ffe6
0002
ffe9
ffdd
fff9
0012
0013
0018
fffa
ffef
0009
fff2
ffe7
0000
fffd
0008
000e
fff4
0001
000c
fff4
fff8
0000
fffc
000a
0012
fff2
0001
000f
fff1
fff7
0000
fffc
0009
0010
fff3
0000
000d
fff2
fff7
0000
000b
000b
000d
fffc
ffeb
0000
fff9
ffe8
fffb
0013
0013
0015
fffe
ffec
0001
fff7
ffe4
fff9
0012
0011
0013
ffff
ffed
0001
fff9
ffe6
fffa
0000
fffd
fff5
000a
0008
fff8
0004
0003
fff9
0006
0000
fff7
0011
000e
fffb
000b
0009
fffd
fffe
fff8
fff0
0007
0003
fff3
0002
0000
fff5
0006
0012
001b
ffe8
fff1
0013
ffeb
ffee
0008
0006
0016
0024
ffe2
fff0
0019
ffe1
ffe9
000a
0006
0015
0020
ffe4
fff0
0017
ffe4
ffeb
000a
fff8
fff5
fff0
0003
0007
fff5
ffff
0002
fff7
fffc
fff8
fff0
000b
000f
fff9
0007
000b
fffb
ffff
fffc
fff4
000e
0013
fffd
0009
000e
fffe
ffe9
ffe8
fffc
fff5
0000
000d
0007
0016
0014
ffe2
ffe3
fffb
fff1
0000
0011
0009
001b
001d
ffe4
ffe4
fffb
fff2
0000
000f
0009
0019
001a
0004
fffa
fff0
000a
ffff
ffeb
0004
0003
fff9
000a
fffb
ffea
0013
0001
ffe7
000f
0008
fff8
000c
fffe
ffed
0015
0005
ffeb
0010
000b
fffb
0005
0010
0019
fff6
0001
0015
fff8
0000
000e
fffd
0008
0015
ffe9
fff7
000e
ffeb
fff6
0007
fffb
0003
0010
ffe7
fff1
0009
ffea
fff3
0003
0000
0000
0000
0001
0002
0001
0000
0001
0000
0008
0008
0008
0008
000a
0009
0007
0008
0008
fff7
fff6
fff7
fff6
fff7
fff7
fff7
fff6
fff7
0018
0009
fffa
0015
fff2
ffdf
0011
0000
fff2
0020
000a
fff4
001b
ffef
ffd6
0016
fffe
ffea
001d
000a
fff7
0019
fff1
ffd9
0014
fffe
ffed
0003
0001
0005
fffb
fff7
0002
0000
fffd
0003
fffc
fffc
0000
fff2
ffef
fffe
fff6
fff5
fffe
0008
000a
000f
0000
0000
000d
0002
0003
000a
ffef
ffec
0000
fff6
fff8
0009
0000
0002
0007
ffeb
ffeb
0002
fff7
fffd
0011
0004
000a
0012
ffef
fff0
0004
fffc
0000
0013
0007
000d
0013
0007
fff7
fff6
0010
fffe
fffb
0014
000f
0009
ffff
ffeb
ffe9
0008
fff3
fff0
000f
0007
0001
0002
fff1
ffef
000c
fff9
fff5
0013
000b
0006
fff9
fffd
0003
fffa
0000
0009
fffe
0003
0007
fffc
0001
0009
fffe
0006
0010
0002
0009
000f
fff1
fff5
fffe
fff2
fff9
0002
fff8
fffd
0002
0002
0006
000e
fff8
fffa
000b
ffff
0000
000a
fff9
fffe
0008
ffed
fff0
0004
fff5
fff7
0003
0000
0005
000e
fff6
fff9
000c
fffd
0000
000a
0016
0007
0001
0013
fff8
fff5
0014
0008
0003
000a
fff8
fff1
0005
ffe6
ffe1
0009
fff9
fff3
0013
0001
fffb
000e
fff1
ffed
0011
0002
fffe
ffee
fffe
0007
ffee
0011
001c
ffed
ffff
0007
ffe9
fffe
000b
ffe9
0013
0021
ffe7
ffff
000a
ffec
ffff
0009
ffec
0012
001f
ffea
ffff
0009
fff4
fff1
fff4
fff1
ffee
fff1
fff3
fff0
fff3
0008
0009
0008
000a
000b
000a
0009
0009
0009
0005
0008
0005
0009
000c
0009
0007
0009
0007
ffee
fff5
0001
fff2
0009
0017
fff6
0005
000d
ffe9
fff3
0003
ffef
000a
001c
fff5
0008
0013
ffeb
fff4
0002
fff0
0009
0019
fff6
0006
0010
fff8
fff7
fff8
fff9
fffd
fff7
fff7
fff9
fff7
fffb
fffa
fffa
fffc
0000
fffa
fffa
fffb
fff9
fff8
fff9
fff8
fffa
0000
fff8
fff7
fff9
fff6
fffd
fff1
ffe8
0017
0010
ffef
000f
000f
fff8
fffd
ffee
ffe0
001b
0011
ffea
0015
0012
fff6
fffd
ffef
ffe3
0019
0010
ffec
0013
0011
fff7
0000
fffc
ffed
0015
0017
fff1
0002
0003
fff0
0002
fffc
ffe8
001a
001a
ffee
0006
0004
ffec
0002
fffe
ffec
0019
001b
fff2
0005
0006
ffef
