002e
0005
0004
0038
0010
002a
ffff
0014
002b
0003
0025
000f
002c
000c
001f
001c
0020
000d
0024
0015
001f
002d
0013
002d
0002
002f
0013
001e
0034
0028
0018
0084
0031
0016
0027
0029
0018
0020
0010
000f
0005
0047
0010
0037
000d
0031
0017
001e
001b
0020
000e
0030
0016
001d
001d
0006
0018
002a
0019
0039
001b
0053
0021
001f
